unsigned char pid_model_micro_tflite[] = {
  0x1c, 0x00, 0x00, 0x00, 0x54, 0x46, 0x4c, 0x33, 0x14, 0x00, 0x20, 0x00,
  0x1c, 0x00, 0x18, 0x00, 0x14, 0x00, 0x10, 0x00, 0x0c, 0x00, 0x00, 0x00,
  0x08, 0x00, 0x04, 0x00, 0x14, 0x00, 0x00, 0x00, 0x1c, 0x00, 0x00, 0x00,
  0x98, 0x00, 0x00, 0x00, 0xf0, 0x00, 0x00, 0x00, 0xdc, 0x0c, 0x00, 0x00,
  0xec, 0x0c, 0x00, 0x00, 0xd4, 0x11, 0x00, 0x00, 0x03, 0x00, 0x00, 0x00,
  0x01, 0x00, 0x00, 0x00, 0x10, 0x00, 0x00, 0x00, 0x00, 0x00, 0x0a, 0x00,
  0x10, 0x00, 0x0c, 0x00, 0x08, 0x00, 0x04, 0x00, 0x0a, 0x00, 0x00, 0x00,
  0x0c, 0x00, 0x00, 0x00, 0x1c, 0x00, 0x00, 0x00, 0x3c, 0x00, 0x00, 0x00,
  0x0f, 0x00, 0x00, 0x00, 0x73, 0x65, 0x72, 0x76, 0x69, 0x6e, 0x67, 0x5f,
  0x64, 0x65, 0x66, 0x61, 0x75, 0x6c, 0x74, 0x00, 0x01, 0x00, 0x00, 0x00,
  0x04, 0x00, 0x00, 0x00, 0x90, 0xff, 0xff, 0xff, 0x09, 0x00, 0x00, 0x00,
  0x04, 0x00, 0x00, 0x00, 0x08, 0x00, 0x00, 0x00, 0x6f, 0x75, 0x74, 0x70,
  0x75, 0x74, 0x5f, 0x30, 0x00, 0x00, 0x00, 0x00, 0x01, 0x00, 0x00, 0x00,
  0x04, 0x00, 0x00, 0x00, 0x32, 0xf5, 0xff, 0xff, 0x04, 0x00, 0x00, 0x00,
  0x0c, 0x00, 0x00, 0x00, 0x6b, 0x65, 0x72, 0x61, 0x73, 0x5f, 0x74, 0x65,
  0x6e, 0x73, 0x6f, 0x72, 0x00, 0x00, 0x00, 0x00, 0x02, 0x00, 0x00, 0x00,
  0x34, 0x00, 0x00, 0x00, 0x04, 0x00, 0x00, 0x00, 0xdc, 0xff, 0xff, 0xff,
  0x0c, 0x00, 0x00, 0x00, 0x04, 0x00, 0x00, 0x00, 0x13, 0x00, 0x00, 0x00,
  0x43, 0x4f, 0x4e, 0x56, 0x45, 0x52, 0x53, 0x49, 0x4f, 0x4e, 0x5f, 0x4d,
  0x45, 0x54, 0x41, 0x44, 0x41, 0x54, 0x41, 0x00, 0x08, 0x00, 0x0c, 0x00,
  0x08, 0x00, 0x04, 0x00, 0x08, 0x00, 0x00, 0x00, 0x0b, 0x00, 0x00, 0x00,
  0x04, 0x00, 0x00, 0x00, 0x13, 0x00, 0x00, 0x00, 0x6d, 0x69, 0x6e, 0x5f,
  0x72, 0x75, 0x6e, 0x74, 0x69, 0x6d, 0x65, 0x5f, 0x76, 0x65, 0x72, 0x73,
  0x69, 0x6f, 0x6e, 0x00, 0x0d, 0x00, 0x00, 0x00, 0xe8, 0x0b, 0x00, 0x00,
  0xe0, 0x0b, 0x00, 0x00, 0x50, 0x0a, 0x00, 0x00, 0x38, 0x02, 0x00, 0x00,
  0x1c, 0x02, 0x00, 0x00, 0x8c, 0x01, 0x00, 0x00, 0x3c, 0x01, 0x00, 0x00,
  0xac, 0x00, 0x00, 0x00, 0xa4, 0x00, 0x00, 0x00, 0x9c, 0x00, 0x00, 0x00,
  0x94, 0x00, 0x00, 0x00, 0x74, 0x00, 0x00, 0x00, 0x04, 0x00, 0x00, 0x00,
  0xe2, 0xf5, 0xff, 0xff, 0x04, 0x00, 0x00, 0x00, 0x60, 0x00, 0x00, 0x00,
  0x10, 0x00, 0x00, 0x00, 0x00, 0x00, 0x00, 0x00, 0x08, 0x00, 0x0e, 0x00,
  0x08, 0x00, 0x04, 0x00, 0x08, 0x00, 0x00, 0x00, 0x10, 0x00, 0x00, 0x00,
  0x24, 0x00, 0x00, 0x00, 0x00, 0x00, 0x06, 0x00, 0x08, 0x00, 0x04, 0x00,
  0x06, 0x00, 0x00, 0x00, 0x04, 0x00, 0x00, 0x00, 0x00, 0x00, 0x00, 0x00,
  0x0c, 0x00, 0x18, 0x00, 0x14, 0x00, 0x10, 0x00, 0x0c, 0x00, 0x04, 0x00,
  0x0c, 0x00, 0x00, 0x00, 0x71, 0xd8, 0x94, 0xfa, 0x5f, 0xd4, 0x0b, 0x6f,
  0x02, 0x00, 0x00, 0x00, 0x02, 0x00, 0x00, 0x00, 0x04, 0x00, 0x00, 0x00,
  0x06, 0x00, 0x00, 0x00, 0x32, 0x2e, 0x31, 0x38, 0x2e, 0x30, 0x00, 0x00,
  0x4e, 0xf6, 0xff, 0xff, 0x04, 0x00, 0x00, 0x00, 0x10, 0x00, 0x00, 0x00,
  0x31, 0x2e, 0x35, 0x2e, 0x30, 0x00, 0x00, 0x00, 0x00, 0x00, 0x00, 0x00,
  0x00, 0x00, 0x00, 0x00, 0x08, 0xf0, 0xff, 0xff, 0x0c, 0xf0, 0xff, 0xff,
  0x10, 0xf0, 0xff, 0xff, 0x76, 0xf6, 0xff, 0xff, 0x04, 0x00, 0x00, 0x00,
  0x80, 0x00, 0x00, 0x00, 0x2b, 0xe3, 0x8c, 0x3e, 0x4d, 0xbd, 0xcc, 0xbc,
  0xf5, 0xf4, 0x53, 0x3d, 0x52, 0xc2, 0xd5, 0xbe, 0x14, 0xe0, 0x44, 0xbe,
  0xfe, 0xa7, 0x19, 0xbe, 0xce, 0xad, 0xb8, 0xbe, 0x92, 0xe0, 0xfe, 0xbe,
  0x3a, 0x9d, 0x71, 0xbe, 0xe3, 0xf9, 0x0b, 0x3e, 0xec, 0xf8, 0x9f, 0xbe,
  0x6c, 0xc4, 0xd4, 0x3e, 0xb5, 0xd3, 0x11, 0xbe, 0x65, 0xbb, 0x9e, 0x3e,
  0x94, 0x42, 0xff, 0xbe, 0xd0, 0x42, 0xca, 0xbe, 0x82, 0x15, 0x45, 0xbe,
  0x4e, 0x65, 0xa8, 0x3e, 0x34, 0x98, 0xca, 0xbe, 0x23, 0xff, 0x44, 0x3e,
  0xb9, 0x16, 0x43, 0xbc, 0xb1, 0x2f, 0xe2, 0x3e, 0xf2, 0x5a, 0x60, 0xbe,
  0x42, 0xff, 0x12, 0xbe, 0xa7, 0xce, 0x93, 0xbb, 0x6a, 0xae, 0x64, 0xbe,
  0x80, 0xee, 0x0a, 0xbd, 0xf4, 0x61, 0x4b, 0xbe, 0x3d, 0x8a, 0x53, 0x3e,
  0xbd, 0x81, 0xfb, 0xbd, 0x80, 0x92, 0x0a, 0xbf, 0x95, 0xf5, 0x0c, 0x3d,
  0x02, 0xf7, 0xff, 0xff, 0x04, 0x00, 0x00, 0x00, 0x40, 0x00, 0x00, 0x00,
  0x72, 0x14, 0x47, 0x3d, 0xbd, 0x4a, 0x13, 0x3d, 0x00, 0x00, 0x00, 0x00,
  0x00, 0x00, 0x00, 0x00, 0xc5, 0x52, 0x34, 0x3d, 0x94, 0xbb, 0xaa, 0x3d,
  0x11, 0x54, 0xbd, 0x3d, 0x00, 0x00, 0x00, 0x00, 0xcb, 0xa7, 0xa1, 0xbc,
  0xae, 0xd9, 0x9b, 0x3d, 0x9f, 0xc8, 0x23, 0x3c, 0x00, 0x00, 0x00, 0x00,
  0x53, 0xd9, 0x3b, 0xbc, 0x00, 0x00, 0x00, 0x00, 0x21, 0x46, 0xbb, 0x3d,
  0x2f, 0xe7, 0x35, 0xbd, 0x4e, 0xf7, 0xff, 0xff, 0x04, 0x00, 0x00, 0x00,
  0x80, 0x00, 0x00, 0x00, 0xf3, 0x02, 0x9e, 0x3d, 0xe1, 0x1c, 0xb3, 0xbc,
  0xc0, 0x56, 0xb4, 0x3d, 0x00, 0x00, 0x00, 0x00, 0xae, 0xcf, 0x9f, 0x3d,
  0x92, 0x92, 0xa8, 0x3d, 0xc9, 0xa4, 0xa1, 0x3d, 0x95, 0x33, 0x83, 0xbc,
  0xb4, 0x67, 0x30, 0xbd, 0x5c, 0x97, 0x8a, 0xbc, 0x02, 0xc1, 0xc1, 0xbc,
  0xcc, 0x02, 0x4f, 0xbd, 0x9e, 0xd0, 0xab, 0xbc, 0xf7, 0x57, 0xb5, 0x3d,
  0xab, 0xd2, 0x72, 0xbd, 0xfc, 0xf5, 0x1c, 0xbd, 0x00, 0x00, 0x00, 0x00,
  0x00, 0x00, 0x00, 0x00, 0x18, 0x22, 0xb4, 0x3d, 0x5f, 0xfc, 0x85, 0x3d,
  0x73, 0xed, 0x99, 0x3d, 0xc8, 0x8e, 0xc0, 0x3d, 0xc1, 0xed, 0x08, 0xbc,
  0xb4, 0x69, 0x08, 0xbd, 0x2c, 0x02, 0x30, 0xbd, 0xd8, 0xba, 0xa9, 0xbb,
  0xd6, 0xe6, 0x1a, 0x3d, 0xc2, 0x89, 0x7c, 0x3d, 0x05, 0x62, 0xba, 0x3d,
  0xf0, 0x28, 0xa1, 0x3d, 0x03, 0x25, 0xbf, 0xbc, 0x00, 0x00, 0x00, 0x00,
  0xda, 0xf7, 0xff, 0xff, 0x04, 0x00, 0x00, 0x00, 0x0c, 0x00, 0x00, 0x00,
  0xcf, 0xde, 0x83, 0x3d, 0xbe, 0x3d, 0x95, 0x3d, 0xe0, 0xf6, 0x84, 0x3d,
  0xf2, 0xf7, 0xff, 0xff, 0x04, 0x00, 0x00, 0x00, 0x00, 0x08, 0x00, 0x00,
  0x1e, 0xe8, 0x5a, 0xbe, 0x99, 0xb4, 0x7c, 0xbe, 0xb4, 0xf3, 0x10, 0xbe,
  0x15, 0xa4, 0x8d, 0xbe, 0xe1, 0x2d, 0x4d, 0x3d, 0x15, 0x3e, 0x0d, 0x3e,
  0x6e, 0x69, 0xdb, 0x3e, 0x52, 0xc9, 0x68, 0x3e, 0xd9, 0x7f, 0xc2, 0x3e,
  0x4c, 0xa0, 0xd5, 0xbd, 0x8d, 0x6d, 0xab, 0x3e, 0xea, 0x19, 0x8c, 0xbe,
  0xc8, 0xf3, 0x3f, 0xbd, 0xf6, 0xd9, 0x81, 0xbe, 0xec, 0x2a, 0x44, 0xbe,
  0x0e, 0xb6, 0x6f, 0x3e, 0x63, 0xd9, 0xcc, 0x3d, 0x86, 0xf1, 0x9e, 0xbe,
  0xac, 0xbc, 0xab, 0xbe, 0x98, 0x8d, 0x7d, 0xbe, 0x18, 0x4f, 0xd9, 0xbd,
  0xf9, 0x17, 0x89, 0xbe, 0x3b, 0xa0, 0xa8, 0x3e, 0x86, 0x8b, 0x0f, 0x3e,
  0x12, 0x7c, 0x81, 0xbe, 0x96, 0xfb, 0x09, 0xbe, 0xb6, 0x9c, 0xf9, 0xbd,
  0xc4, 0xd9, 0x24, 0xbe, 0x55, 0x5b, 0x4f, 0x3d, 0x07, 0xe2, 0xb4, 0x3e,
  0x9c, 0xa3, 0xb8, 0xbd, 0x23, 0xa9, 0xb4, 0xbe, 0xef, 0x6d, 0xe7, 0x3d,
  0xc2, 0x30, 0xd4, 0x3d, 0xf6, 0x76, 0x6d, 0xbe, 0xda, 0x99, 0x37, 0x3e,
  0xeb, 0x69, 0xa5, 0x3d, 0x78, 0x73, 0x95, 0x3c, 0x47, 0xc2, 0x46, 0xbe,
  0x84, 0x11, 0xdd, 0x3d, 0xab, 0x14, 0x92, 0x3e, 0xfd, 0xab, 0x21, 0x3d,
  0xe8, 0x31, 0xb3, 0x3e, 0xc2, 0x9b, 0x71, 0x3e, 0x39, 0xd4, 0x8c, 0x3e,
  0x73, 0xe6, 0xa5, 0x3e, 0xaa, 0xc8, 0xa5, 0xbd, 0x64, 0x2e, 0xd0, 0xbd,
  0x70, 0xf9, 0x94, 0xbe, 0x38, 0x87, 0x42, 0xbd, 0xe7, 0x90, 0x8a, 0x3e,
  0x7c, 0xf9, 0x89, 0x3d, 0xe4, 0x75, 0x99, 0xbe, 0xdd, 0xf3, 0x84, 0x3e,
  0x00, 0xbe, 0x02, 0xbb, 0x4f, 0x96, 0x99, 0xbe, 0xd0, 0xb8, 0xd1, 0x3d,
  0xa4, 0x45, 0x72, 0xbe, 0xa2, 0x7d, 0x8f, 0xbe, 0xa6, 0xaa, 0x5c, 0x3e,
  0x98, 0xfa, 0x00, 0xbe, 0xa5, 0xde, 0xa5, 0xbe, 0xa8, 0x84, 0x98, 0xbe,
  0xbc, 0x59, 0xad, 0xbe, 0x8a, 0xa7, 0x83, 0x3e, 0xd3, 0xac, 0x43, 0xbe,
  0xad, 0xd3, 0x2b, 0xbe, 0x5e, 0xbf, 0x24, 0x3e, 0x41, 0x6e, 0xac, 0xbe,
  0xdb, 0x3a, 0x05, 0x3d, 0xa5, 0xbc, 0x44, 0x3e, 0xd8, 0x8b, 0x41, 0x3d,
  0x8e, 0x03, 0x73, 0xbe, 0x9d, 0xb7, 0x70, 0x3e, 0x12, 0x6e, 0xbe, 0x3d,
  0x68, 0x50, 0x71, 0xbe, 0x74, 0x8b, 0x58, 0xbd, 0xd4, 0xcb, 0xad, 0x3d,
  0xdf, 0x88, 0xa6, 0x3d, 0x87, 0x1a, 0x8e, 0xbc, 0x2e, 0xd9, 0x95, 0xbd,
  0xfb, 0x73, 0x20, 0xbe, 0x88, 0xd7, 0x2a, 0x3d, 0x08, 0xec, 0x3f, 0xbe,
  0x49, 0x12, 0x2f, 0x3d, 0x3e, 0x29, 0xd7, 0x3e, 0x5a, 0x4f, 0xbe, 0x3e,
  0x83, 0xe0, 0x8a, 0xbe, 0x69, 0xe0, 0x20, 0xbd, 0xb4, 0x1a, 0xab, 0x3e,
  0x6d, 0xe6, 0x3f, 0xbe, 0x86, 0x5f, 0xf0, 0xbd, 0xfb, 0x41, 0x98, 0xbe,
  0x7e, 0x42, 0x8f, 0xbe, 0xac, 0x75, 0xc0, 0xbd, 0xbb, 0xbd, 0x14, 0x3e,
  0x09, 0x5a, 0xaf, 0x3e, 0x36, 0x93, 0x65, 0x3e, 0x8d, 0x15, 0x40, 0xbe,
  0x6c, 0x2f, 0x90, 0xbd, 0xad, 0x71, 0x4e, 0x3e, 0xed, 0xc8, 0x40, 0x3e,
  0x0c, 0xf3, 0x84, 0xbe, 0x65, 0x79, 0x88, 0x3e, 0x06, 0x60, 0x80, 0x3e,
  0xcc, 0x08, 0xfc, 0x3d, 0xe4, 0x57, 0xfa, 0x3b, 0x00, 0xf2, 0xb2, 0xbb,
  0xaa, 0x13, 0x68, 0xbe, 0x11, 0x40, 0x8e, 0x3e, 0x1b, 0xe6, 0xdc, 0x3e,
  0x37, 0xdd, 0x56, 0x3d, 0x17, 0x56, 0x3b, 0x3d, 0x1c, 0xcb, 0xd9, 0x3b,
  0x88, 0xd8, 0xf3, 0xbd, 0xcc, 0xab, 0x96, 0x3d, 0x40, 0xc8, 0xca, 0x3e,
  0xb4, 0x8d, 0xa1, 0x3c, 0xea, 0x63, 0x9f, 0x3e, 0xd5, 0x98, 0xb1, 0x3e,
  0xd6, 0xe5, 0x6c, 0x3e, 0xf3, 0xea, 0x34, 0x3e, 0xe7, 0x92, 0x61, 0x3e,
  0x20, 0x17, 0x89, 0xbc, 0x83, 0x63, 0x64, 0x3e, 0x3e, 0x68, 0x4c, 0xbe,
  0xa4, 0x0b, 0x9f, 0xbd, 0xe9, 0xc0, 0x4d, 0xbe, 0x65, 0x23, 0x9f, 0xbe,
  0xc0, 0x9f, 0x37, 0x3c, 0xe4, 0x33, 0x8b, 0xbd, 0x80, 0xe0, 0x5f, 0x3d,
  0xb6, 0x72, 0xd4, 0x3d, 0x41, 0x60, 0x66, 0x3e, 0xe0, 0xad, 0x26, 0x3e,
  0x60, 0x16, 0xae, 0xbe, 0x88, 0x2e, 0x67, 0x3e, 0x3e, 0x5f, 0xa0, 0xbe,
  0x6c, 0xea, 0x9f, 0x3d, 0x51, 0x24, 0xb3, 0xbe, 0x8f, 0x8e, 0x91, 0x3e,
  0x45, 0x36, 0xaa, 0x3e, 0xcb, 0x69, 0xab, 0xbd, 0x91, 0x5b, 0x47, 0x3d,
  0xca, 0xa4, 0x48, 0xbe, 0xa0, 0xd9, 0xdd, 0x3d, 0x62, 0x91, 0x17, 0x3e,
  0xa2, 0x5d, 0x50, 0x3e, 0x49, 0x99, 0xb3, 0x3d, 0xbb, 0x66, 0x97, 0x3c,
  0x9c, 0xdf, 0xf2, 0xbd, 0xe0, 0xa0, 0x9e, 0xbe, 0x12, 0xba, 0xa8, 0xbd,
  0xb1, 0x92, 0xe1, 0x3d, 0x50, 0xda, 0x70, 0x3c, 0x15, 0x52, 0x82, 0x3e,
  0xd7, 0x7f, 0x1e, 0xbe, 0xe8, 0x7b, 0xbf, 0xbd, 0xb4, 0x04, 0xa5, 0xbe,
  0xce, 0x9f, 0x90, 0x3e, 0x4e, 0x2b, 0xc2, 0x3d, 0x83, 0x32, 0xad, 0xbd,
  0x74, 0xb1, 0xc6, 0xbd, 0xe0, 0x26, 0x8f, 0x3c, 0xd4, 0x09, 0xa2, 0x3d,
  0xaa, 0xa0, 0x92, 0x3d, 0xd8, 0x50, 0x84, 0x3e, 0xfb, 0x18, 0x81, 0x3e,
  0xed, 0xd2, 0x73, 0xbe, 0x44, 0x02, 0xcc, 0x3e, 0xea, 0x12, 0x8f, 0x3e,
  0x74, 0xc6, 0xa7, 0xbd, 0xe8, 0xc8, 0x9a, 0x3d, 0xe8, 0x59, 0xb0, 0xbe,
  0x63, 0x80, 0xcd, 0xbc, 0xdc, 0x53, 0x8d, 0xbd, 0x1b, 0x28, 0x94, 0xbe,
  0xa3, 0x72, 0xb1, 0x3d, 0xd2, 0x47, 0x1a, 0x3e, 0x5e, 0x9e, 0x1c, 0xbe,
  0xc6, 0x22, 0x42, 0x3d, 0xbe, 0x25, 0x1f, 0xbe, 0x06, 0xba, 0xa5, 0x3e,
  0xea, 0xa3, 0x96, 0xbe, 0xfd, 0xfb, 0x81, 0xbe, 0xd6, 0x94, 0xa2, 0x3e,
  0x00, 0xc5, 0xbd, 0x3d, 0xf3, 0x49, 0x89, 0x3e, 0xb0, 0x04, 0xca, 0xbd,
  0xfb, 0x26, 0x88, 0x3e, 0x03, 0x18, 0x36, 0x3e, 0x78, 0x0e, 0x94, 0xbe,
  0x7f, 0xa7, 0xdc, 0xbd, 0x86, 0x37, 0x79, 0xbe, 0x3f, 0xde, 0xb2, 0x3e,
  0x64, 0xdc, 0xb2, 0xbd, 0x40, 0x68, 0x09, 0xbd, 0x70, 0x5e, 0xe0, 0xbc,
  0xc4, 0x82, 0x5c, 0xbe, 0xcb, 0x53, 0xb2, 0x3e, 0x63, 0xee, 0xb7, 0xbe,
  0xbe, 0x23, 0x40, 0x3e, 0xf1, 0x1e, 0x4e, 0x3e, 0x8b, 0x93, 0x9e, 0x3e,
  0x5f, 0x50, 0xac, 0xbe, 0x32, 0xbc, 0xfa, 0xbd, 0xa9, 0x38, 0x74, 0xbe,
  0x06, 0x1e, 0x3a, 0xbe, 0xb5, 0xd7, 0x36, 0xbe, 0x82, 0x43, 0xd3, 0xbd,
  0x36, 0x60, 0xfc, 0xbd, 0x02, 0xb1, 0x87, 0xbe, 0x7e, 0x65, 0x71, 0x3d,
  0x3a, 0x76, 0xe9, 0xbd, 0xad, 0xf8, 0x62, 0x3e, 0xda, 0x51, 0x34, 0x3e,
  0x50, 0x4d, 0xdc, 0x3d, 0x6c, 0xd9, 0x6b, 0x3c, 0x2c, 0xd0, 0xed, 0x3d,
  0x90, 0x84, 0x6f, 0xbe, 0xb5, 0xb6, 0xa9, 0x3e, 0x10, 0xf8, 0xee, 0x3c,
  0x23, 0x39, 0xd2, 0x3e, 0x52, 0xeb, 0xe4, 0xbd, 0x19, 0x0b, 0x19, 0x3e,
  0x9a, 0xb5, 0x44, 0xbe, 0xa1, 0x7b, 0x68, 0xbe, 0x15, 0xc2, 0x9f, 0xbe,
  0x29, 0x08, 0x4f, 0xbe, 0x2b, 0x79, 0xf5, 0xbd, 0xfb, 0x01, 0x6a, 0xbe,
  0x72, 0xa5, 0x5a, 0xbe, 0xde, 0x9e, 0xb1, 0x3d, 0x5b, 0x26, 0x94, 0x3e,
  0x0b, 0x0d, 0x2f, 0x3e, 0xc0, 0xf4, 0x9e, 0x3d, 0x68, 0x4f, 0x98, 0x3e,
  0x3a, 0xca, 0x58, 0xbe, 0x01, 0x0c, 0x3a, 0x3e, 0x96, 0x75, 0x94, 0x3e,
  0xe7, 0x91, 0x90, 0x3e, 0x41, 0x2e, 0x5f, 0x3e, 0xa4, 0x02, 0xcf, 0xbd,
  0xca, 0xfa, 0x33, 0x3e, 0x78, 0x1a, 0xbd, 0x3d, 0x9e, 0x50, 0x94, 0xbe,
  0x6a, 0x4b, 0x87, 0xbe, 0xc6, 0x55, 0x9d, 0xbe, 0xc0, 0x95, 0xd5, 0x3c,
  0x00, 0xd9, 0x6a, 0x3b, 0x89, 0xe1, 0x3f, 0xbe, 0x80, 0xae, 0xa0, 0xbc,
  0xcd, 0x1a, 0x58, 0xbe, 0xfc, 0xa2, 0xc5, 0x3d, 0xa9, 0xb1, 0xb3, 0xbe,
  0x29, 0x04, 0xaa, 0x3e, 0x13, 0x7e, 0xaf, 0xbe, 0x80, 0xba, 0x2e, 0xbd,
  0x7e, 0x12, 0x29, 0xbe, 0x2e, 0x7c, 0x21, 0x3e, 0x52, 0x50, 0x85, 0xbe,
  0xfc, 0x9f, 0x7c, 0xbe, 0x28, 0x37, 0x93, 0x3d, 0x5a, 0xd1, 0x46, 0x3e,
  0x10, 0xb9, 0xa9, 0xbc, 0x9e, 0x65, 0x57, 0x3e, 0x78, 0x3d, 0x95, 0xbd,
  0x82, 0xc5, 0x16, 0x3e, 0x00, 0x48, 0xa6, 0xbc, 0x9d, 0x9b, 0x5a, 0xbe,
  0x40, 0xf6, 0xb3, 0xbb, 0x40, 0x92, 0xee, 0xbc, 0xec, 0x0b, 0x50, 0xbe,
  0xa8, 0x5f, 0x37, 0x3d, 0xfd, 0x47, 0x21, 0xbe, 0x20, 0xd6, 0x98, 0xbd,
  0xc0, 0x2e, 0x99, 0xbe, 0x55, 0xa6, 0x9a, 0xbe, 0x48, 0xc4, 0x43, 0xbd,
  0xc5, 0xf4, 0xa0, 0xbe, 0x16, 0x83, 0xff, 0xbd, 0xb0, 0xcb, 0x5a, 0xbd,
  0xec, 0x85, 0x04, 0xbe, 0x35, 0x0a, 0xa6, 0x3e, 0x3c, 0xbb, 0x09, 0x3e,
  0x38, 0x9e, 0x69, 0xbd, 0xc0, 0x82, 0xb7, 0xbb, 0x7c, 0x60, 0xb3, 0xbd,
  0x7a, 0x83, 0x26, 0xbe, 0x21, 0x75, 0x1e, 0xbe, 0x72, 0x0d, 0xa4, 0xbe,
  0x13, 0x86, 0x61, 0xbe, 0x1c, 0x71, 0x72, 0xbe, 0xf8, 0x3d, 0xb8, 0xbe,
  0x5b, 0x78, 0x94, 0x3e, 0x0d, 0x3d, 0xa4, 0x3e, 0x38, 0x09, 0x4d, 0x3c,
  0xa4, 0x35, 0x2d, 0x3e, 0x8d, 0xad, 0x61, 0xbd, 0xf3, 0x17, 0xad, 0x3e,
  0xf8, 0xe0, 0x03, 0xbe, 0xf8, 0x26, 0x76, 0x3d, 0x79, 0xbf, 0x41, 0x3e,
  0xa3, 0x00, 0xca, 0xbd, 0x75, 0xc7, 0xc8, 0x3e, 0x54, 0x6f, 0x37, 0x3d,
  0xc8, 0x2c, 0x49, 0x3d, 0xac, 0x5f, 0xfb, 0x3d, 0x89, 0x6c, 0x22, 0x3d,
  0x22, 0xdc, 0xb0, 0x3e, 0x78, 0xd1, 0xbe, 0x3d, 0x75, 0xdf, 0x97, 0x3e,
  0x2f, 0x4e, 0xdd, 0x3d, 0xa7, 0x02, 0x2d, 0x3e, 0x51, 0xbc, 0x2a, 0x3e,
  0x81, 0xe0, 0x9a, 0xbe, 0x4a, 0xc8, 0xab, 0xbe, 0x03, 0xd3, 0x8b, 0x3e,
  0x38, 0x9d, 0x02, 0xbe, 0xe1, 0x98, 0x22, 0xbb, 0x2c, 0x63, 0xd9, 0xbd,
  0xfe, 0xcc, 0xab, 0x3e, 0xbf, 0x4c, 0x0a, 0xbe, 0x33, 0xe9, 0x83, 0x3e,
  0x30, 0xd2, 0x69, 0xbe, 0x62, 0x75, 0x32, 0xbe, 0x49, 0x1d, 0xf1, 0x3d,
  0xe1, 0x6f, 0xaa, 0xbe, 0x8a, 0xe5, 0xba, 0x3e, 0x97, 0xdb, 0xcb, 0x3e,
  0x22, 0x05, 0x9a, 0xbe, 0x9f, 0x96, 0x8e, 0x3e, 0xb4, 0xf6, 0xf7, 0x3d,
  0xd4, 0x08, 0x85, 0x3d, 0x8d, 0x98, 0xc5, 0x3e, 0x3e, 0xb7, 0xd8, 0xbd,
  0x8c, 0x7d, 0x79, 0x3d, 0x37, 0x1d, 0x1c, 0xbe, 0xcd, 0x9e, 0xa6, 0x3e,
  0xc9, 0xc5, 0xa1, 0x3e, 0xf5, 0x6d, 0x9b, 0xbd, 0x64, 0x05, 0x01, 0x3e,
  0x1f, 0x34, 0xd4, 0x3e, 0x3b, 0x0c, 0xb1, 0x3e, 0x99, 0xcb, 0xb6, 0xbd,
  0x11, 0xad, 0x29, 0xbe, 0x05, 0xb6, 0x82, 0xbc, 0x1e, 0xae, 0x19, 0xbe,
  0x51, 0xcd, 0x69, 0x3d, 0x78, 0x5c, 0xac, 0xbe, 0xfb, 0x95, 0xc9, 0x3e,
  0x76, 0xf6, 0x9f, 0xbe, 0x1f, 0xdf, 0x61, 0xbe, 0x50, 0xd9, 0xb3, 0x3c,
  0x9a, 0xd4, 0x9b, 0xbe, 0xd1, 0x67, 0x38, 0xbe, 0x20, 0xfd, 0x53, 0xbd,
  0x66, 0x33, 0x3e, 0xbe, 0xd2, 0x58, 0x8e, 0x3e, 0x32, 0xb1, 0x18, 0x3e,
  0x5b, 0xcc, 0x02, 0xbe, 0xbb, 0x21, 0x9e, 0xbe, 0x32, 0x06, 0xe3, 0x3c,
  0xac, 0xbc, 0xb0, 0x3d, 0x3b, 0xe3, 0xa9, 0x3e, 0x2c, 0xbe, 0x89, 0x3d,
  0x44, 0x1d, 0x12, 0x3e, 0x52, 0xd7, 0x6e, 0x3e, 0xe9, 0x8c, 0x5c, 0xbe,
  0xc8, 0x31, 0x62, 0x3d, 0x48, 0x65, 0x61, 0xbe, 0xd0, 0x0a, 0x64, 0xbd,
  0x1d, 0xb1, 0xcc, 0xbe, 0xdd, 0x5e, 0x84, 0x3e, 0xf8, 0xe9, 0x95, 0xbe,
  0x78, 0x4f, 0xa8, 0xbd, 0x8d, 0x24, 0x11, 0x3e, 0x4c, 0xe6, 0x1d, 0x3a,
  0x0a, 0xa0, 0x83, 0x3d, 0xc7, 0xe6, 0x03, 0xbe, 0xa0, 0xa7, 0x0b, 0x3e,
  0xee, 0x87, 0xaf, 0xbe, 0x90, 0x01, 0x68, 0x3c, 0x33, 0x09, 0xa0, 0x3d,
  0xdc, 0xee, 0xdc, 0xbd, 0xb0, 0x54, 0xc9, 0xbc, 0x17, 0x14, 0x02, 0xbe,
  0x00, 0x3a, 0x7c, 0x3d, 0x15, 0xed, 0x98, 0xbe, 0x0f, 0xac, 0x43, 0x3d,
  0x6f, 0x66, 0x6f, 0x3d, 0xe8, 0x6a, 0x44, 0xbd, 0xae, 0xa6, 0x80, 0x3e,
  0xd2, 0x09, 0xf4, 0x3c, 0x89, 0x52, 0xbd, 0x3d, 0x20, 0xbd, 0x1a, 0xbc,
  0x6a, 0x27, 0x74, 0x3e, 0xa6, 0x5a, 0x67, 0x3e, 0x84, 0xf4, 0x0b, 0xbe,
  0x54, 0x4e, 0x32, 0xbc, 0x8a, 0xb7, 0x87, 0x3e, 0x9b, 0x3c, 0x31, 0x3e,
  0x8a, 0x37, 0x55, 0xbe, 0x6d, 0xf3, 0x86, 0xbe, 0xa8, 0x90, 0x8b, 0x3e,
  0x00, 0x1c, 0x14, 0xbc, 0xf5, 0x4e, 0xa4, 0x3e, 0xc3, 0xbb, 0x9d, 0x3e,
  0x00, 0xa0, 0x29, 0xbe, 0xdb, 0x75, 0x84, 0xbd, 0x2f, 0x02, 0xd9, 0x3c,
  0x41, 0x52, 0x8d, 0x3e, 0x3b, 0x0a, 0x8b, 0xbd, 0x90, 0xfe, 0x55, 0x3d,
  0x49, 0xb5, 0xbb, 0xbe, 0xb3, 0xf2, 0xa9, 0xbe, 0x43, 0x50, 0xb1, 0x3d,
  0xdb, 0xd7, 0x05, 0x3d, 0x80, 0xa9, 0x23, 0x3b, 0xe4, 0xe5, 0x88, 0x3d,
  0xa8, 0x67, 0x14, 0xbe, 0x5a, 0x50, 0x7a, 0xbd, 0x95, 0x44, 0xce, 0xbd,
  0x20, 0x26, 0x58, 0x3d, 0xdc, 0x4c, 0xcd, 0xbd, 0x50, 0xe6, 0xc3, 0xbd,
  0xcc, 0x46, 0x42, 0x3e, 0x9a, 0xba, 0x43, 0x3e, 0xa6, 0x08, 0xb5, 0xbd,
  0x47, 0x56, 0xa8, 0x3e, 0x62, 0x6f, 0x31, 0x3e, 0xea, 0x81, 0x3e, 0x3e,
  0x2e, 0xbb, 0xe9, 0xbd, 0x2e, 0x9e, 0x47, 0x3e, 0x5d, 0x4f, 0xa4, 0xbe,
  0x96, 0x7e, 0x44, 0x3e, 0xe1, 0xfa, 0x9e, 0xbd, 0xe7, 0x79, 0xf3, 0xbd,
  0xd2, 0x51, 0xb9, 0x3c, 0xae, 0x76, 0xa5, 0xbe, 0xc3, 0x8d, 0x60, 0xbe,
  0x8e, 0x92, 0x22, 0x3d, 0x69, 0xe4, 0xa8, 0x3e, 0xb4, 0x7a, 0x46, 0xbe,
  0x18, 0x23, 0xef, 0xbd, 0x82, 0xdf, 0x65, 0x3e, 0x0b, 0x9e, 0x08, 0xbe,
  0xb0, 0x50, 0xcc, 0xbc, 0x1d, 0x00, 0x10, 0xbd, 0x14, 0xf2, 0xa6, 0x3e,
  0x30, 0xab, 0x5f, 0xbe, 0xaa, 0xdd, 0x2f, 0x3e, 0x1e, 0xca, 0x3b, 0x3e,
  0x63, 0x23, 0x8a, 0x3e, 0x8f, 0x2d, 0x29, 0xbe, 0x88, 0x9b, 0xb8, 0x3d,
  0xe2, 0xc4, 0x4c, 0x3d, 0x93, 0x51, 0x54, 0x3e, 0xa7, 0xdf, 0xb0, 0x3d,
  0x60, 0xbf, 0x0c, 0xbc, 0x80, 0x7f, 0x2c, 0x3c, 0xdd, 0x1f, 0x9a, 0x3e,
  0xe5, 0x05, 0x89, 0x3e, 0x72, 0x4b, 0x18, 0xbe, 0x93, 0x79, 0xdb, 0x3e,
  0x8d, 0xa1, 0x3c, 0xbe, 0xae, 0x06, 0x52, 0x3e, 0xb0, 0xfc, 0x9e, 0x3c,
  0x18, 0xb5, 0x1e, 0x3e, 0x93, 0xdb, 0xe2, 0x3d, 0x4d, 0x44, 0xd7, 0x3e,
  0xfa, 0xf2, 0x64, 0x3e, 0xcc, 0xc7, 0x54, 0xbd, 0xde, 0xcb, 0xce, 0x3e,
  0x27, 0xa3, 0x2b, 0xbd, 0x91, 0x74, 0x4d, 0xbe, 0x20, 0x05, 0xae, 0xbe,
  0x00, 0xb2, 0x47, 0x3c, 0xee, 0xa0, 0x91, 0x3d, 0xb1, 0x15, 0x17, 0xbe,
  0x26, 0x14, 0x09, 0xbd, 0xd4, 0x7a, 0xa3, 0xbc, 0x96, 0xaf, 0xda, 0xbd,
  0xbe, 0x7f, 0x24, 0xbe, 0x23, 0x9f, 0x95, 0x3e, 0x42, 0x8b, 0x74, 0xbe,
  0xbc, 0x91, 0xae, 0xbe, 0xb2, 0xa8, 0xa9, 0xbe, 0x32, 0xb5, 0x63, 0xbe,
  0x0e, 0x00, 0xb5, 0xbe, 0x75, 0x5d, 0xa9, 0xbe, 0x80, 0x88, 0x00, 0xbd,
  0x36, 0xa7, 0x6d, 0xbe, 0x9c, 0x34, 0xbe, 0xbd, 0x91, 0x50, 0xf4, 0x3d,
  0x98, 0xc2, 0x1d, 0xbd, 0x30, 0xca, 0xe4, 0x3c, 0xc0, 0xd1, 0x66, 0x3c,
  0x00, 0x17, 0x90, 0x3b, 0x60, 0x76, 0x47, 0x3d, 0x46, 0x8d, 0x1a, 0x3e,
  0x00, 0xb3, 0x6f, 0x3d, 0x74, 0x24, 0x95, 0xbd, 0x55, 0x08, 0xa6, 0xbe,
  0x8e, 0xc3, 0x48, 0x3e, 0x10, 0xb5, 0x63, 0xbe, 0x45, 0x6e, 0xa1, 0xbe,
  0x46, 0x06, 0x31, 0x3e, 0x70, 0xf8, 0x70, 0xbd, 0x70, 0xd0, 0x34, 0x3d,
  0x48, 0x76, 0xe8, 0xbd, 0xbc, 0x9c, 0xb4, 0xbd, 0x00, 0x00, 0x06, 0x00,
  0x08, 0x00, 0x04, 0x00, 0x06, 0x00, 0x00, 0x00, 0x04, 0x00, 0x00, 0x00,
  0x80, 0x01, 0x00, 0x00, 0xa9, 0xec, 0x92, 0x3d, 0x63, 0xad, 0x2d, 0xbe,
  0x3b, 0xa8, 0xb4, 0x3e, 0x87, 0x02, 0xa9, 0x3e, 0xc1, 0x8a, 0x90, 0xbe,
  0xb8, 0xe9, 0x8c, 0x3e, 0xe7, 0x2f, 0xa7, 0xbe, 0x64, 0xff, 0x27, 0x3e,
  0xb2, 0x1c, 0x4e, 0xbd, 0x52, 0x4f, 0x20, 0x3e, 0x88, 0xeb, 0xc1, 0x3e,
  0xca, 0xf7, 0x51, 0x3e, 0xc8, 0x75, 0x54, 0x3d, 0xe9, 0x41, 0x58, 0x3e,
  0xd8, 0xa4, 0x92, 0xbd, 0xa1, 0x01, 0xc1, 0x3e, 0x50, 0xd7, 0x8f, 0xbd,
  0x92, 0xdf, 0xa8, 0xbe, 0x66, 0x4d, 0xd1, 0xbe, 0x2c, 0x74, 0xf1, 0x3e,
  0x93, 0xfa, 0x94, 0xbd, 0x73, 0x67, 0x6e, 0xbc, 0x72, 0x7c, 0x7a, 0xbd,
  0x05, 0x04, 0x46, 0xbd, 0x7a, 0x73, 0x13, 0x3e, 0x1a, 0x04, 0xfc, 0x3e,
  0xb1, 0x05, 0x28, 0xbd, 0x4f, 0x39, 0x5c, 0x3e, 0xa3, 0xf1, 0xed, 0xbc,
  0xfc, 0x80, 0xb8, 0x3e, 0xa6, 0x58, 0xbd, 0x3e, 0xe4, 0xae, 0x06, 0xbe,
  0xee, 0x1a, 0x2a, 0xbd, 0x08, 0xd1, 0x72, 0xbe, 0x4d, 0x91, 0xed, 0x3e,
  0x52, 0xda, 0x2b, 0xbe, 0xae, 0xb7, 0xab, 0x3e, 0x57, 0x17, 0x00, 0x3e,
  0xa6, 0x70, 0x8c, 0x3e, 0xf6, 0x63, 0x2e, 0xbe, 0x54, 0x1c, 0xb3, 0xbe,
  0x5d, 0x9e, 0x70, 0xbe, 0x49, 0x90, 0x69, 0xbe, 0xe0, 0xcf, 0x83, 0x3e,
  0xb5, 0x41, 0x27, 0xbd, 0x27, 0x09, 0x07, 0x3f, 0x60, 0xb1, 0x4d, 0xbd,
  0x0a, 0xe6, 0x2f, 0xbb, 0xe7, 0x18, 0x8c, 0x3e, 0xdd, 0xdc, 0xc1, 0xbe,
  0x09, 0xdb, 0xdd, 0x3e, 0x94, 0xe3, 0x0e, 0xbe, 0xa8, 0x86, 0xbe, 0x3e,
  0x87, 0xf4, 0x7a, 0x3d, 0xd8, 0x50, 0x85, 0xbd, 0x9a, 0x0e, 0xda, 0x3d,
  0x6a, 0xc5, 0x31, 0xbd, 0x43, 0x04, 0x0d, 0xbe, 0x45, 0x85, 0xa7, 0x3e,
  0x56, 0x1b, 0xf2, 0xbd, 0xb1, 0xb0, 0xbc, 0x3e, 0x84, 0xa7, 0x09, 0x3e,
  0xbf, 0x7d, 0x99, 0xbe, 0x45, 0xfc, 0x86, 0x3e, 0x7c, 0xaa, 0x9a, 0x3e,
  0x9c, 0x9a, 0x74, 0xbd, 0x4f, 0x32, 0x96, 0xbe, 0xae, 0x42, 0x3a, 0x3e,
  0xcd, 0x62, 0xbf, 0x3d, 0x96, 0x28, 0x4c, 0x3e, 0x57, 0xc6, 0x59, 0x3e,
  0x03, 0xa9, 0xcc, 0x3d, 0x60, 0x78, 0xb9, 0xbe, 0x01, 0xe9, 0x66, 0xbe,
  0x44, 0x4f, 0x1a, 0xbb, 0xe2, 0xe0, 0x6e, 0xbe, 0x31, 0x18, 0x74, 0xbe,
  0x4d, 0x37, 0xc0, 0x3e, 0x55, 0x04, 0xa2, 0xbe, 0x35, 0xf7, 0x3b, 0x3c,
  0x5c, 0x9d, 0x9e, 0xbd, 0x74, 0x18, 0x98, 0xbe, 0xfc, 0x02, 0x3e, 0x3e,
  0x53, 0x44, 0xe4, 0x3e, 0x1e, 0xa1, 0xc1, 0x3e, 0x3e, 0xe1, 0x2c, 0x3e,
  0x31, 0x95, 0x86, 0xbe, 0xf1, 0x75, 0xbe, 0xbe, 0x34, 0xa5, 0x37, 0xbe,
  0xce, 0x55, 0xc8, 0xbd, 0xb3, 0xb6, 0x83, 0xbe, 0x3d, 0xed, 0x79, 0x3e,
  0x3c, 0x64, 0x89, 0x3e, 0x9a, 0x7d, 0x73, 0x3e, 0x7b, 0xef, 0xe1, 0x3d,
  0x93, 0x0c, 0xc3, 0x3e, 0x30, 0xfb, 0xff, 0xff, 0x34, 0xfb, 0xff, 0xff,
  0x0f, 0x00, 0x00, 0x00, 0x4d, 0x4c, 0x49, 0x52, 0x20, 0x43, 0x6f, 0x6e,
  0x76, 0x65, 0x72, 0x74, 0x65, 0x64, 0x2e, 0x00, 0x01, 0x00, 0x00, 0x00,
  0x14, 0x00, 0x00, 0x00, 0x00, 0x00, 0x0e, 0x00, 0x18, 0x00, 0x14, 0x00,
  0x10, 0x00, 0x0c, 0x00, 0x08, 0x00, 0x04, 0x00, 0x0e, 0x00, 0x00, 0x00,
  0x14, 0x00, 0x00, 0x00, 0x1c, 0x00, 0x00, 0x00, 0xd8, 0x00, 0x00, 0x00,
  0xdc, 0x00, 0x00, 0x00, 0xe0, 0x00, 0x00, 0x00, 0x04, 0x00, 0x00, 0x00,
  0x6d, 0x61, 0x69, 0x6e, 0x00, 0x00, 0x00, 0x00, 0x03, 0x00, 0x00, 0x00,
  0x80, 0x00, 0x00, 0x00, 0x38, 0x00, 0x00, 0x00, 0x04, 0x00, 0x00, 0x00,
  0x9a, 0xff, 0xff, 0xff, 0x10, 0x00, 0x00, 0x00, 0x00, 0x00, 0x00, 0x08,
  0x0c, 0x00, 0x00, 0x00, 0x10, 0x00, 0x00, 0x00, 0xac, 0xfb, 0xff, 0xff,
  0x01, 0x00, 0x00, 0x00, 0x09, 0x00, 0x00, 0x00, 0x03, 0x00, 0x00, 0x00,
  0x08, 0x00, 0x00, 0x00, 0x01, 0x00, 0x00, 0x00, 0x03, 0x00, 0x00, 0x00,
  0xca, 0xff, 0xff, 0xff, 0x10, 0x00, 0x00, 0x00, 0x00, 0x00, 0x00, 0x08,
  0x10, 0x00, 0x00, 0x00, 0x14, 0x00, 0x00, 0x00, 0xba, 0xff, 0xff, 0xff,
  0x00, 0x00, 0x00, 0x01, 0x01, 0x00, 0x00, 0x00, 0x08, 0x00, 0x00, 0x00,
  0x03, 0x00, 0x00, 0x00, 0x07, 0x00, 0x00, 0x00, 0x02, 0x00, 0x00, 0x00,
  0x04, 0x00, 0x00, 0x00, 0x00, 0x00, 0x0e, 0x00, 0x16, 0x00, 0x00, 0x00,
  0x10, 0x00, 0x0c, 0x00, 0x0b, 0x00, 0x04, 0x00, 0x0e, 0x00, 0x00, 0x00,
  0x18, 0x00, 0x00, 0x00, 0x00, 0x00, 0x00, 0x08, 0x18, 0x00, 0x00, 0x00,
  0x1c, 0x00, 0x00, 0x00, 0x00, 0x00, 0x06, 0x00, 0x08, 0x00, 0x07, 0x00,
  0x06, 0x00, 0x00, 0x00, 0x00, 0x00, 0x00, 0x01, 0x01, 0x00, 0x00, 0x00,
  0x07, 0x00, 0x00, 0x00, 0x03, 0x00, 0x00, 0x00, 0x00, 0x00, 0x00, 0x00,
  0x06, 0x00, 0x00, 0x00, 0x05, 0x00, 0x00, 0x00, 0x01, 0x00, 0x00, 0x00,
  0x09, 0x00, 0x00, 0x00, 0x01, 0x00, 0x00, 0x00, 0x00, 0x00, 0x00, 0x00,
  0x0a, 0x00, 0x00, 0x00, 0x7c, 0x03, 0x00, 0x00, 0x24, 0x03, 0x00, 0x00,
  0xcc, 0x02, 0x00, 0x00, 0x90, 0x02, 0x00, 0x00, 0x34, 0x02, 0x00, 0x00,
  0xdc, 0x01, 0x00, 0x00, 0x90, 0x01, 0x00, 0x00, 0xfc, 0x00, 0x00, 0x00,
  0x60, 0x00, 0x00, 0x00, 0x04, 0x00, 0x00, 0x00, 0xc2, 0xfc, 0xff, 0xff,
  0x00, 0x00, 0x00, 0x01, 0x14, 0x00, 0x00, 0x00, 0x1c, 0x00, 0x00, 0x00,
  0x1c, 0x00, 0x00, 0x00, 0x0a, 0x00, 0x00, 0x00, 0x34, 0x00, 0x00, 0x00,
  0x02, 0x00, 0x00, 0x00, 0xff, 0xff, 0xff, 0xff, 0x03, 0x00, 0x00, 0x00,
  0xac, 0xfc, 0xff, 0xff, 0x1b, 0x00, 0x00, 0x00, 0x53, 0x74, 0x61, 0x74,
  0x65, 0x66, 0x75, 0x6c, 0x50, 0x61, 0x72, 0x74, 0x69, 0x74, 0x69, 0x6f,
  0x6e, 0x65, 0x64, 0x43, 0x61, 0x6c, 0x6c, 0x5f, 0x31, 0x3a, 0x30, 0x00,
  0x02, 0x00, 0x00, 0x00, 0x01, 0x00, 0x00, 0x00, 0x03, 0x00, 0x00, 0x00,
  0x1a, 0xfd, 0xff, 0xff, 0x00, 0x00, 0x00, 0x01, 0x14, 0x00, 0x00, 0x00,
  0x1c, 0x00, 0x00, 0x00, 0x1c, 0x00, 0x00, 0x00, 0x09, 0x00, 0x00, 0x00,
  0x74, 0x00, 0x00, 0x00, 0x02, 0x00, 0x00, 0x00, 0xff, 0xff, 0xff, 0xff,
  0x20, 0x00, 0x00, 0x00, 0x04, 0xfd, 0xff, 0xff, 0x58, 0x00, 0x00, 0x00,
  0x73, 0x65, 0x71, 0x75, 0x65, 0x6e, 0x74, 0x69, 0x61, 0x6c, 0x5f, 0x31,
  0x2f, 0x64, 0x65, 0x6e, 0x73, 0x65, 0x5f, 0x31, 0x5f, 0x32, 0x2f, 0x4d,
  0x61, 0x74, 0x4d, 0x75, 0x6c, 0x3b, 0x73, 0x65, 0x71, 0x75, 0x65, 0x6e,
  0x74, 0x69, 0x61, 0x6c, 0x5f, 0x31, 0x2f, 0x64, 0x65, 0x6e, 0x73, 0x65,
  0x5f, 0x31, 0x5f, 0x32, 0x2f, 0x52, 0x65, 0x6c, 0x75, 0x3b, 0x73, 0x65,
  0x71, 0x75, 0x65, 0x6e, 0x74, 0x69, 0x61, 0x6c, 0x5f, 0x31, 0x2f, 0x64,
  0x65, 0x6e, 0x73, 0x65, 0x5f, 0x31, 0x5f, 0x32, 0x2f, 0x42, 0x69, 0x61,
  0x73, 0x41, 0x64, 0x64, 0x00, 0x00, 0x00, 0x00, 0x02, 0x00, 0x00, 0x00,
  0x01, 0x00, 0x00, 0x00, 0x20, 0x00, 0x00, 0x00, 0xb2, 0xfd, 0xff, 0xff,
  0x00, 0x00, 0x00, 0x01, 0x14, 0x00, 0x00, 0x00, 0x1c, 0x00, 0x00, 0x00,
  0x1c, 0x00, 0x00, 0x00, 0x08, 0x00, 0x00, 0x00, 0x6c, 0x00, 0x00, 0x00,
  0x02, 0x00, 0x00, 0x00, 0xff, 0xff, 0xff, 0xff, 0x10, 0x00, 0x00, 0x00,
  0x9c, 0xfd, 0xff, 0xff, 0x52, 0x00, 0x00, 0x00, 0x73, 0x65, 0x71, 0x75,
  0x65, 0x6e, 0x74, 0x69, 0x61, 0x6c, 0x5f, 0x31, 0x2f, 0x64, 0x65, 0x6e,
  0x73, 0x65, 0x5f, 0x31, 0x2f, 0x4d, 0x61, 0x74, 0x4d, 0x75, 0x6c, 0x3b,
  0x73, 0x65, 0x71, 0x75, 0x65, 0x6e, 0x74, 0x69, 0x61, 0x6c, 0x5f, 0x31,
  0x2f, 0x64, 0x65, 0x6e, 0x73, 0x65, 0x5f, 0x31, 0x2f, 0x52, 0x65, 0x6c,
  0x75, 0x3b, 0x73, 0x65, 0x71, 0x75, 0x65, 0x6e, 0x74, 0x69, 0x61, 0x6c,
  0x5f, 0x31, 0x2f, 0x64, 0x65, 0x6e, 0x73, 0x65, 0x5f, 0x31, 0x2f, 0x42,
  0x69, 0x61, 0x73, 0x41, 0x64, 0x64, 0x00, 0x00, 0x02, 0x00, 0x00, 0x00,
  0x01, 0x00, 0x00, 0x00, 0x10, 0x00, 0x00, 0x00, 0x96, 0xfe, 0xff, 0xff,
  0x00, 0x00, 0x00, 0x01, 0x10, 0x00, 0x00, 0x00, 0x10, 0x00, 0x00, 0x00,
  0x07, 0x00, 0x00, 0x00, 0x28, 0x00, 0x00, 0x00, 0x1c, 0xfe, 0xff, 0xff,
  0x1b, 0x00, 0x00, 0x00, 0x73, 0x65, 0x71, 0x75, 0x65, 0x6e, 0x74, 0x69,
  0x61, 0x6c, 0x5f, 0x31, 0x2f, 0x64, 0x65, 0x6e, 0x73, 0x65, 0x5f, 0x31,
  0x2f, 0x4d, 0x61, 0x74, 0x4d, 0x75, 0x6c, 0x00, 0x02, 0x00, 0x00, 0x00,
  0x10, 0x00, 0x00, 0x00, 0x02, 0x00, 0x00, 0x00, 0xde, 0xfe, 0xff, 0xff,
  0x00, 0x00, 0x00, 0x01, 0x10, 0x00, 0x00, 0x00, 0x10, 0x00, 0x00, 0x00,
  0x06, 0x00, 0x00, 0x00, 0x38, 0x00, 0x00, 0x00, 0x64, 0xfe, 0xff, 0xff,
  0x2b, 0x00, 0x00, 0x00, 0x73, 0x65, 0x71, 0x75, 0x65, 0x6e, 0x74, 0x69,
  0x61, 0x6c, 0x5f, 0x31, 0x2f, 0x64, 0x65, 0x6e, 0x73, 0x65, 0x5f, 0x31,
  0x2f, 0x42, 0x69, 0x61, 0x73, 0x41, 0x64, 0x64, 0x2f, 0x52, 0x65, 0x61,
  0x64, 0x56, 0x61, 0x72, 0x69, 0x61, 0x62, 0x6c, 0x65, 0x4f, 0x70, 0x00,
  0x01, 0x00, 0x00, 0x00, 0x10, 0x00, 0x00, 0x00, 0x32, 0xff, 0xff, 0xff,
  0x00, 0x00, 0x00, 0x01, 0x10, 0x00, 0x00, 0x00, 0x10, 0x00, 0x00, 0x00,
  0x05, 0x00, 0x00, 0x00, 0x3c, 0x00, 0x00, 0x00, 0xb8, 0xfe, 0xff, 0xff,
  0x2d, 0x00, 0x00, 0x00, 0x73, 0x65, 0x71, 0x75, 0x65, 0x6e, 0x74, 0x69,
  0x61, 0x6c, 0x5f, 0x31, 0x2f, 0x64, 0x65, 0x6e, 0x73, 0x65, 0x5f, 0x31,
  0x5f, 0x32, 0x2f, 0x42, 0x69, 0x61, 0x73, 0x41, 0x64, 0x64, 0x2f, 0x52,
  0x65, 0x61, 0x64, 0x56, 0x61, 0x72, 0x69, 0x61, 0x62, 0x6c, 0x65, 0x4f,
  0x70, 0x00, 0x00, 0x00, 0x01, 0x00, 0x00, 0x00, 0x20, 0x00, 0x00, 0x00,
  0x8a, 0xff, 0xff, 0xff, 0x00, 0x00, 0x00, 0x01, 0x10, 0x00, 0x00, 0x00,
  0x10, 0x00, 0x00, 0x00, 0x04, 0x00, 0x00, 0x00, 0x1c, 0x00, 0x00, 0x00,
  0x10, 0xff, 0xff, 0xff, 0x0f, 0x00, 0x00, 0x00, 0x61, 0x72, 0x69, 0x74,
  0x68, 0x2e, 0x63, 0x6f, 0x6e, 0x73, 0x74, 0x61, 0x6e, 0x74, 0x32, 0x00,
  0x01, 0x00, 0x00, 0x00, 0x03, 0x00, 0x00, 0x00, 0xc2, 0xff, 0xff, 0xff,
  0x00, 0x00, 0x00, 0x01, 0x10, 0x00, 0x00, 0x00, 0x10, 0x00, 0x00, 0x00,
  0x03, 0x00, 0x00, 0x00, 0x1c, 0x00, 0x00, 0x00, 0x48, 0xff, 0xff, 0xff,
  0x0f, 0x00, 0x00, 0x00, 0x61, 0x72, 0x69, 0x74, 0x68, 0x2e, 0x63, 0x6f,
  0x6e, 0x73, 0x74, 0x61, 0x6e, 0x74, 0x31, 0x00, 0x02, 0x00, 0x00, 0x00,
  0x20, 0x00, 0x00, 0x00, 0x10, 0x00, 0x00, 0x00, 0x00, 0x00, 0x16, 0x00,
  0x18, 0x00, 0x14, 0x00, 0x00, 0x00, 0x10, 0x00, 0x0c, 0x00, 0x08, 0x00,
  0x00, 0x00, 0x00, 0x00, 0x00, 0x00, 0x07, 0x00, 0x16, 0x00, 0x00, 0x00,
  0x00, 0x00, 0x00, 0x01, 0x10, 0x00, 0x00, 0x00, 0x10, 0x00, 0x00, 0x00,
  0x02, 0x00, 0x00, 0x00, 0x1c, 0x00, 0x00, 0x00, 0x9c, 0xff, 0xff, 0xff,
  0x0e, 0x00, 0x00, 0x00, 0x61, 0x72, 0x69, 0x74, 0x68, 0x2e, 0x63, 0x6f,
  0x6e, 0x73, 0x74, 0x61, 0x6e, 0x74, 0x00, 0x00, 0x02, 0x00, 0x00, 0x00,
  0x03, 0x00, 0x00, 0x00, 0x20, 0x00, 0x00, 0x00, 0x00, 0x00, 0x16, 0x00,
  0x1c, 0x00, 0x18, 0x00, 0x00, 0x00, 0x14, 0x00, 0x10, 0x00, 0x0c, 0x00,
  0x00, 0x00, 0x00, 0x00, 0x08, 0x00, 0x07, 0x00, 0x16, 0x00, 0x00, 0x00,
  0x00, 0x00, 0x00, 0x01, 0x14, 0x00, 0x00, 0x00, 0x20, 0x00, 0x00, 0x00,
  0x20, 0x00, 0x00, 0x00, 0x01, 0x00, 0x00, 0x00, 0x3c, 0x00, 0x00, 0x00,
  0x02, 0x00, 0x00, 0x00, 0xff, 0xff, 0xff, 0xff, 0x02, 0x00, 0x00, 0x00,
  0x04, 0x00, 0x04, 0x00, 0x04, 0x00, 0x00, 0x00, 0x1e, 0x00, 0x00, 0x00,
  0x73, 0x65, 0x72, 0x76, 0x69, 0x6e, 0x67, 0x5f, 0x64, 0x65, 0x66, 0x61,
  0x75, 0x6c, 0x74, 0x5f, 0x6b, 0x65, 0x72, 0x61, 0x73, 0x5f, 0x74, 0x65,
  0x6e, 0x73, 0x6f, 0x72, 0x3a, 0x30, 0x00, 0x00, 0x02, 0x00, 0x00, 0x00,
  0x01, 0x00, 0x00, 0x00, 0x02, 0x00, 0x00, 0x00, 0x01, 0x00, 0x00, 0x00,
  0x10, 0x00, 0x00, 0x00, 0x0c, 0x00, 0x0c, 0x00, 0x0b, 0x00, 0x00, 0x00,
  0x00, 0x00, 0x04, 0x00, 0x0c, 0x00, 0x00, 0x00, 0x09, 0x00, 0x00, 0x00,
  0x00, 0x00, 0x00, 0x09
};
unsigned int pid_model_micro_tflite_len = 4648;
